<unk>	0
<s>	0
</s>	0
do	-0
ndo	-1
ci	-2
ando	-3
es	-4
▁a	-5
▁p	-6
er	-7
▁l	-8
or	-9
ta	-10
▁A	-11
▁la	-12
▁m	-13
ces	-14
da	-15
ro	-16
el	-17
ni	-18
en	-19
▁s	-20
▁Ac	-21
ra	-22
endo	-23
al	-24
▁d	-25
▁P	-26
uer	-27
uerta	-28
▁puerta	-29
▁si	-30
roces	-31
Re	-32
▁Re	-33
on	-34
▁Acci	-35
ón	-36
ec	-37
▁I	-38
nici	-39
▁Inici	-40
▁Iniciando	-41
re	-42
iv	-43
tiv	-44
as	-45
▁E	-46
dí	-47
día	-48
elo	-49
▁melo	-50
▁melodía	-51
▁c	-52
ir	-53
ma	-54
te	-55
▁h	-56
▁lu	-57
▁luces	-58
iendo	-59
bi	-60
tu	-61
in	-62
odo	-63
ol	-64
av	-65
▁f	-66
avor	-67
▁Por	-68
▁favor	-69
fir	-70
mada	-71
▁con	-72
firmada	-73
▁Acción	-74
▁confirmada	-75
▁es	-76
mo	-77
ciendo	-78
▁del	-79
▁de	-80
ga	-81
ut	-82
hor	-83
jec	-84
hora	-85
jecut	-86
▁ahora	-87
▁Ejecut	-88
▁Ejecutando	-89
tivando	-90
gu	-91
gui	-92
ente	-93
▁sigui	-94
▁siguiente	-95
roceso	-96
▁proceso	-97
▁G	-98
cias	-99
▁Gra	-100
▁Gracias	-101
an	-102
per	-103
▁Proces	-104
▁Procesando	-105
▁S	-106
ici	-107
tud	-108
▁re	-109
bida	-110
▁Sol	-111
▁reci	-112
icitud	-113
▁recibida	-114
▁Solicitud	-115
nt	-116
ani	-117
ara	-118
smo	-119
▁mec	-120
▁para	-121
anismo	-122
onando	-123
▁mecanismo	-124
▁Accionando	-125
du	-126
pro	-127
produ	-128
▁Reprodu	-129
▁Reproduciendo	-130
▁Activando	-131
br	-132
pa	-133
diendo	-134
gar	-135
▁ho	-136
▁hogar	-137
tado	-138
▁estado	-139
eri	-140
▁ant	-141
erior	-142
▁anterior	-143
il	-144
um	-145
▁g	-146
aci	-147
▁il	-148
ener	-149
umin	-150
ación	-151
eneral	-152
▁ilumin	-153
▁general	-154
▁iluminación	-155
▁C	-156
▁L	-157
das	-158
▁Las	-159
▁han	-160
▁sido	-161
▁n	-162
mal	-163
▁nor	-164
▁normal	-165
cen	-166
▁M	-167
ado	-168
▁ac	-169
▁Modo	-170
tivado	-171
▁activado	-172
cip	-173
rin	-174
cipal	-175
▁prin	-176
▁principal	-177
▁al	-178
▁modo	-179
is	-180
ista	-181
▁pista	-182
▁su	-183
▁super	-184
rando	-185
gr	-186
tá	-187
dar	-188
tán	-189
gres	-190
tándar	-191
▁Regres	-192
▁estándar	-193
▁Regresando	-194
am	-195
ambi	-196
▁Cambi	-197
▁Cambiando	-198
ce	-199
ia	-200
rev	-201
tro	-202
revia	-203
troce	-204
▁previa	-205
▁Retroce	-206
▁Retrocediendo	-207
pag	-208
▁Apag	-209
▁Apagando	-210
rar	-211
▁cer	-212
▁cerrar	-213
brir	-214
▁abrir	-215
tura	-216
▁aper	-217
▁apertura	-218
bl	-219
ble	-220
ste	-221
esta	-222
stema	-223
estable	-224
▁sistema	-225
▁Reestable	-226
▁Reestableciendo	-227
▁Abr	-228
▁Abriendo	-229
xi	-230
niv	-231
áxi	-232
▁niv	-233
áximo	-234
▁nivel	-235
▁máximo	-236
▁ci	-237
erre	-238
paga	-239
▁apaga	-240
▁cierre	-241
▁apagadas	-242
▁En	-243
▁Encen	-244
▁Encendiendo	-245
ic	-246
us	-247
anz	-248
▁Av	-249
ical	-250
▁mus	-251
▁Avanz	-252
▁musical	-253
▁Avanzando	-254
di	-255
▁en	-256
cendi	-257
cendidas	-258
▁encendidas	-259
ac	-260
▁D	-261
esac	-262
▁Desac	-263
▁Desactivando	-264
▁V	-265
olv	-266
▁Volv	-267
▁Volviendo	-268
▁Cer	-269
▁Cerrando	-270
▁Ent	-271
▁Entrando	-272
Ab	-273
Ac	-274
Ap	-275
Av	-276
Ca	-277
Ce	-278
De	-279
Ej	-280
En	-281
Gr	-282
In	-283
La	-284
Mo	-285
Po	-286
Pr	-287
So	-288
Vo	-289
ab	-290
ad	-291
ag	-292
ah	-293
ap	-294
ar	-295
ca	-296
cc	-297
co	-298
ct	-299
cu	-300
de	-301
ed	-302
ee	-303
eg	-304
em	-305
ep	-306
et	-307
ev	-308
fa	-309
fi	-310
ge	-311
ha	-312
ho	-313
ib	-314
id	-315
ie	-316
ig	-317
im	-318
io	-319
ip	-320
it	-321
ió	-322
je	-323
la	-324
le	-325
li	-326
lo	-327
lu	-328
lv	-329
mb	-330
me	-331
mi	-332
mu	-333
má	-334
na	-335
nc	-336
nd	-337
ne	-338
nf	-339
no	-340
nz	-341
oc	-342
od	-343
og	-344
pe	-345
pi	-346
pr	-347
pu	-348
ri	-349
rm	-350
rr	-351
rt	-352
sa	-353
si	-354
sm	-355
so	-356
st	-357
su	-358
ti	-359
tr	-360
uc	-361
ud	-362
ue	-363
ui	-364
up	-365
ur	-366
va	-367
ve	-368
vi	-369
vo	-370
za	-371
án	-372
áx	-373
ía	-374
▁R	-375
▁e	-376
▁i	-377
▁r	-378
Cer	-379
Des	-380
Gra	-381
Ini	-382
Las	-383
Por	-384
Pro	-385
Reg	-386
Rep	-387
Ret	-388
Sol	-389
Vol	-390
ada	-391
aga	-392
cal	-393
cci	-394
cer	-395
cia	-396
cib	-397
cie	-398
cio	-399
cit	-400
ció	-401
con	-402
del	-403
eca	-404
eci	-405
ecu	-406
ees	-407
ema	-408
enc	-409
end	-410
ent	-411
era	-412
err	-413
ert	-414
esa	-415
eso	-416
est	-417
fav	-418
gen	-419
ida	-420
ido	-421
ien	-422
ilu	-423
imo	-424
ina	-425
ior	-426
irm	-427
iva	-428
mbi	-429
min	-430
nci	-431
nda	-432
ner	-433
nis	-434
nor	-435
ntr	-436
odí	-437
oga	-438
oli	-439
onf	-440
ora	-441
orm	-442
pal	-443
res	-444
rir	-445
roc	-446
rod	-447
sic	-448
sta	-449
tab	-450
ter	-451
uci	-452
ura	-453
van	-454
vel	-455
via	-456
vor	-457
▁Ab	-458
▁Ap	-459
▁Ca	-460
▁Ej	-461
▁ab	-462
▁ah	-463
▁an	-464
▁ap	-465
▁ha	-466
▁me	-467
▁mo	-468
▁mu	-469
▁má	-470
▁ni	-471
▁pa	-472
▁pi	-473
▁pr	-474
▁pu	-475
Modo	-476
Rees	-477
anis	-478
cend	-479
ceso	-480
cibi	-481
cier	-482
cion	-483
citu	-484
ción	-485
ctiv	-486
ecut	-487
eral	-488
erra	-489
erta	-490
ertu	-491
gada	-492
idas	-493
ilum	-494
inci	-495
irma	-496
ncen	-497
ndar	-498
nter	-499
oces	-500
odía	-501
ogar	-502
raci	-503
reci	-504
roce	-505
rodu	-506
tabl	-507
tema	-508
tiva	-509
uces	-510
uper	-511
usic	-512
vanz	-513
ximo	-514
▁Act	-515
▁Apa	-516
▁Cam	-517
▁Des	-518
▁Ini	-519
▁Pro	-520
▁Reg	-521
▁Rep	-522
▁Ret	-523
▁Vol	-524
▁abr	-525
▁apa	-526
▁est	-527
▁fav	-528
▁gen	-529
▁mel	-530
▁pis	-531
▁pre	-532
▁pro	-533
▁sig	-534
▁sis	-535
didas	-536
ecani	-537
encen	-538
errar	-539
firma	-540
gadas	-541
gando	-542
guien	-543
iando	-544
icitu	-545
inaci	-546
incip	-547
nando	-548
nivel	-549
nteri	-550
olici	-551
onfir	-552
ormal	-553
pertu	-554
sando	-555
table	-556
tando	-557
▁	-558
a	-559
o	-560
e	-561
i	-562
n	-563
d	-564
r	-565
c	-566
.	-567
l	-568
s	-569
t	-570
u	-571
p	-572
m	-573
v	-574
A	-575
g	-576
b	-577
h	-578
f	-579
P	-580
R	-581
ó	-582
I	-583
E	-584
í	-585
j	-586
G	-587
S	-588
á	-589
C	-590
L	-591
M	-592
x	-593
z	-594
D	-595
V	-596
