<unk>	0
<s>	0
</s>	0
do	-3.32637
▁de	-3.3618
o	-3.58977
a	-3.70756
ndo	-3.89346
▁	-3.9833
▁en	-3.99424
▁Mo	-4.08261
ción	-4.16247
s	-4.20304
▁S	-4.2326
▁a	-4.2392
▁super	-4.3299
▁P	-4.47781
▁apertura	-4.52117
l	-4.52691
▁siguiente	-4.56371
cion	-4.60955
▁musical	-4.6243
▁A	-4.64588
istema	-4.76377
▁normal	-4.83701
▁melodia	-4.83877
ando	-4.88416
▁Lu	-4.88941
▁anterior	-4.89625
▁mo	-4.9632
▁principal	-4.98932
▁iluminacion	-5.00161
▁Re	-5.01668
▁Activa	-5.04971
▁activado	-5.05085
ista	-5.09902
▁L	-5.13776
▁pista	-5.16205
▁luz	-5.1677
▁Ilumina	-5.1847
▁luces	-5.18568
▁sistema	-5.23038
▁activada	-5.25045
uerta	-5.27236
▁re	-5.28587
da	-5.28687
▁puerta	-5.33718
▁habilitada	-5.35557
▁Reproduc	-5.38687
▁Encendi	-5.39821
▁previa	-5.40216
▁M	-5.43233
e	-5.43948
endo	-5.45636
es	-5.4693
ol	-5.48035
▁activo	-5.49771
▁habilitad	-5.50457
iendo	-5.50574
ces	-5.55354
r	-5.556
▁ejecutad	-5.55865
▁Cont	-5.57872
z	-5.58011
idad	-5.58205
▁Si	-5.59234
▁confirmad	-5.59731
stema	-5.61571
▁adelant	-5.6414
pertura	-5.652
▁Apaga	-5.66909
▁lista	-5.67335
▁Ejecu	-5.69813
▁interior	-5.72551
n	-5.74797
ecuencia	-5.74865
cia	-5.74904
▁ha	-5.75119
▁al	-5.75479
▁Esta	-5.78237
▁Op	-5.80325
▁estándar	-5.82332
cceso	-5.82938
V	-5.8464
era	-5.86038
viend	-5.86323
▁avanzado	-5.95351
t	-5.96214
▁correctamente	-5.96553
▁esta	-5.97968
▁luminos	-6.02317
al	-6.03962
ándose	-6.0399
ada	-6.04018
mbiente	-6.05568
▁T	-6.07421
▁si	-6.07798
ema	-6.08614
▁establecid	-6.08762
▁F	-6.08805
curso	-6.08935
▁secuencia	-6.10306
▁hogar	-6.10809
▁Regres	-6.10998
▁procesad	-6.11468
▁encendida	-6.13858
▁general	-6.16322
os	-6.19147
ro	-6.19239
▁ilumina	-6.2051
▁funcionamiento	-6.21337
uz	-6.2165
▁base	-6.22158
▁recuperad	-6.22161
tra	-6.23257
▁O	-6.24316
▁iniciad	-6.24478
y	-6.2563
▁proceso	-6.25863
spon	-6.27078
▁segur	-6.28489
▁C	-6.30113
▁Cambi	-6.30195
▁s	-6.30913
uces	-6.32176
ón	-6.32277
▁Pu	-6.33487
▁Desactiva	-6.34018
▁r	-6.34515
ce	-6.34977
▁inicia	-6.3527
▁desplaz	-6.35294
▁encendido	-6.35582
▁Inici	-6.37022
troceso	-6.3787
la	-6.38677
dad	-6.3905
▁ambiente	-6.39101
torn	-6.40956
▁activa	-6.41544
▁canción	-6.42054
▁R	-6.42147
▁acceso	-6.4323
elodia	-6.43577
▁Des	-6.43767
te	-6.44063
▁co	-6.44287
▁encendidas	-6.44621
▁operativo	-6.44742
on	-6.44938
▁l	-6.45318
▁reforzado	-6.47152
del	-6.49093
▁Avan	-6.50448
ida	-6.51218
▁I	-6.5237
▁total	-6.5309
▁avanzada	-6.53214
▁Funcion	-6.53772
▁máxim	-6.54266
▁Potencia	-6.54268
▁previo	-6.5444
ible	-6.54444
d	-6.5464
▁elevado	-6.5514
▁estable	-6.55275
ta	-6.55541
▁luminoso	-6.56141
▁posterior	-6.56663
▁básico	-6.57881
▁Entra	-6.59128
▁interno	-6.59324
men	-6.603
▁Libera	-6.60366
di	-6.6078
ica	-6.60864
▁apagado	-6.62422
▁inicial	-6.62879
nto	-6.63512
me	-6.63614
egur	-6.65646
tema	-6.6666
▁iniciado	-6.68594
rotec	-6.68962
usica	-6.69624
ecanismo	-6.6983
mente	-6.70684
▁desactivada	-6.70989
▁Co	-6.71157
▁Canci	-6.72032
▁complet	-6.72352
▁Restaura	-6.72379
á	-6.72635
v	-6.72922
pera	-6.74582
▁interiores	-6.7501
▁con	-6.76786
▁Melod	-6.78548
▁ejecuta	-6.7916
ceso	-6.79468
c	-6.79686
▁oscuro	-6.79734
▁avanzando	-6.83409
▁ejecu	-6.83589
amiento	-6.83815
▁completa	-6.84294
▁regular	-6.84422
vi	-6.84746
▁m	-6.85658
ten	-6.86289
▁N	-6.86633
▁habilitadas	-6.86847
▁retrocedida	-6.87675
bili	-6.88411
▁Ac	-6.89292
▁deshabilitada	-6.90556
▁Acce	-6.90668
▁c	-6.90747
en	-6.91683
por	-6.92055
▁remota	-6.9276
so	-6.92838
▁De	-6.93349
dicion	-6.94086
ir	-6.94565
▁regresa	-6.95183
▁adelantada	-6.9562
é	-6.96286
▁mejorada	-6.96299
gi	-6.96371
▁completad	-6.96479
▁ext	-6.97386
tro	-6.97464
vimiento	-6.97489
duccion	-6.98207
mú	-6.98381
▁Retroce	-6.98965
▁par	-6.98996
▁D	-6.99918
▁retirada	-6.99969
▁moviéndose	-6.9997
▁operativa	-7.00992
▁nivel	-7.01873
▁reproduc	-7.02405
▁in	-7.03522
▁com	-7.03561
▁normales	-7.03715
xim	-7.03743
▁asegurado	-7.03778
erta	-7.04357
▁list	-7.05321
aximiza	-7.05772
▁Finaliza	-7.0583
▁entran	-7.06789
▁son	-7.07228
aliza	-7.08178
▁automatizada	-7.0873
í	-7.09768
▁configura	-7.09807
establecid	-7.09847
oni	-7.10644
briendo	-7.11189
alt	-7.11204
dia	-7.11258
▁aplicad	-7.11861
imiza	-7.12353
ntensi	-7.12629
▁pr	-7.13048
▁pu	-7.13961
▁aumentad	-7.14015
▁intensi	-7.1404
▁regresiva	-7.16243
▁interna	-7.17319
list	-7.18491
ó	-7.1971
▁autom	-7.20656
▁original	-7.20657
▁restaurad	-7.20658
teni	-7.2099
oc	-7.21866
tu	-7.2236
rt	-7.22568
▁apertur	-7.22639
▁zona	-7.22985
ti	-7.23924
▁apagadas	-7.24091
▁ord	-7.25397
▁opera	-7.25487
sbloque	-7.26222
pla	-7.2628
▁apagada	-7.27285
▁iluminad	-7.28015
ndimiento	-7.32597
luminacion	-7.33011
in	-7.34447
▁Con	-7.34568
▁p	-7.35278
etroceso	-7.37416
f	-7.37574
el	-7.3803
▁at	-7.38949
zando	-7.40228
Z	-7.40969
ido	-7.42105
amente	-7.42107
▁regres	-7.42694
▁H	-7.43826
▁progres	-7.44069
▁Config	-7.44325
▁Transici	-7.4523
m	-7.45352
▁d	-7.45377
▁Norma	-7.45653
ona	-7.45691
ora	-7.46886
endido	-7.47081
jo	-7.48281
▁Proces	-7.48555
erna	-7.49535
i	-7.50661
sconecta	-7.51004
ado	-7.51371
elecciona	-7.51721
▁transición	-7.52923
▁Pa	-7.5306
na	-7.5335
▁u	-7.53893
ntinua	-7.54335
imple	-7.54834
▁abri	-7.55186
▁liber	-7.5559
▁ambient	-7.55672
▁selecci	-7.55945
iéndose	-7.56322
plaza	-7.56665
bri	-7.58358
ivel	-7.59455
as	-7.59675
forza	-7.60019
▁reforzad	-7.60383
ontinua	-7.60772
▁Ret	-7.60846
ib	-7.61838
tiva	-7.62838
▁rec	-7.62901
secu	-7.62964
▁libera	-7.63532
▁elevad	-7.63867
inici	-7.66133
▁tra	-7.66915
anzado	-7.67317
▁acces	-7.67669
vo	-7.68172
rá	-7.69487
ores	-7.69642
▁Inicia	-7.69927
▁comp	-7.71057
err	-7.71899
▁Reproducci	-7.72907
b	-7.72933
rogreso	-7.74138
habilita	-7.74197
u	-7.74798
no	-7.75989
inte	-7.76396
activado	-7.7699
rre	-7.77371
uccion	-7.77837
em	-7.77905
ie	-7.77938
▁canc	-7.78046
mentada	-7.78129
▁funcion	-7.78252
ext	-7.79667
▁deshabilitad	-7.80165
atr	-7.80328
str	-7.80713
▁inte	-7.80926
tura	-7.80987
▁apaga	-7.8183
▁avan	-7.82093
tadas	-7.82225
▁desp	-7.82476
▁habi	-7.82619
ej	-7.82697
gr	-7.82794
ctor	-7.83103
ente	-7.84068
eccion	-7.84231
zado	-7.84382
scur	-7.86821
itu	-7.86874
activa	-7.86882
stablecid	-7.86984
us	-7.87325
ota	-7.87749
▁Rest	-7.87912
or	-7.88295
▁pro	-7.88529
ba	-7.88722
st	-7.89994
nt	-7.90225
lo	-7.91436
ior	-7.91821
ig	-7.9211
▁cor	-7.93304
ort	-7.94059
liz	-7.94976
inaliza	-7.9581
ert	-7.95888
remo	-7.95935
▁fu	-7.95939
sist	-7.96802
▁v	-7.97013
rd	-7.97942
ia	-7.98046
ementada	-7.98364
▁automatizad	-7.98403
tr	-7.98543
mpl	-7.98727
▁desactivad	-7.98854
▁f	-7.99634
etorn	-7.99729
vanzando	-8.0084
rea	-8.01068
su	-8.0147
ati	-8.04036
ec	-8.04925
iada	-8.04965
ogar	-8.06133
sición	-8.0685
inc	-8.07858
uncionamiento	-8.08387
lu	-8.08909
▁funciona	-8.11293
bloque	-8.12683
▁el	-8.13739
roceso	-8.15364
ovimiento	-8.15742
apa	-8.16101
etro	-8.17026
▁des	-8.18008
act	-8.18681
est	-8.20951
ori	-8.21076
cu	-8.21808
producción	-8.23588
abilita	-8.2397
min	-8.24537
iva	-8.25405
esbloque	-8.26893
lidad	-8.28362
sica	-8.28599
j	-8.29446
av	-8.29873
tinua	-8.29913
tor	-8.30685
▁Ce	-8.31105
endimiento	-8.31191
▁Movi	-8.32101
eg	-8.33937
to	-8.34269
▁ba	-8.35213
iguiente	-8.37871
espe	-8.4135
plaz	-8.46325
cializa	-8.46481
▁Ap	-8.53804
ertura	-8.54635
toma	-8.5469
ormalidad	-8.54815
produccion	-8.54954
rio	-8.54965
eforza	-8.60982
▁reto	-8.60992
icado	-8.61202
ra	-8.62239
se	-8.64938
ina	-8.65473
anción	-8.65831
om	-8.66135
▁Po	-8.67029
▁est	-8.68717
erada	-8.69294
bi	-8.73789
li	-8.74986
ula	-8.76463
▁su	-8.77778
miento	-8.78843
esconecta	-8.82453
activ	-8.86586
alizad	-8.86711
ue	-8.89864
aj	-8.90378
conecta	-8.92842
lizado	-8.94258
tid	-8.94319
re	-8.95542
▁o	-8.96484
▁proces	-8.96685
tom	-8.98032
▁n	-8.99784
ró	-9.00121
▁E	-9.00431
onfigura	-9.01759
mple	-9.05568
ter	-9.06831
orta	-9.07816
ci	-9.13252
▁activ	-9.22391
ome	-9.22761
▁so	-9.22992
ian	-9.24363
▁Se	-9.25725
guiente	-9.25917
un	-9.26905
stabili	-9.27053
cuencia	-9.28995
zándose	-9.30647
eproducción	-9.31044
inua	-9.32238
▁po	-9.36686
sos	-9.41545
gresiva	-9.41725
ga	-9.42548
rno	-9.45843
ca	-9.46421
ncion	-9.46751
▁Pro	-9.50503
ura	-9.50848
ve	-9.5342
nfigura	-9.55701
oste	-9.56936
liza	-9.60753
eproduccion	-9.64509
ú	-9.68123
nzando	-9.72163
figura	-9.73937
ste	-9.80444
▁estab	-9.81464
eten	-9.87602
eci	-9.88523
g	-9.89301
er	-9.9054
tur	-9.91042
▁Activaci	-9.9312
tir	-9.93578
sta	-9.93669
▁Li	-9.9754
jecuta	-9.99235
▁ret	-10.0236
▁operativ	-10.0271
ap	-10.0489
mad	-10.0896
abili	-10.1196
▁Me	-10.1368
splaza	-10.1417
▁Ca	-10.2022
fi	-10.245
va	-10.2601
ac	-10.2725
▁e	-10.2763
rada	-10.3165
shabilita	-10.3467
▁In	-10.3677
cado	-10.3856
orn	-10.4059
cional	-10.4128
gur	-10.4138
tensi	-10.4179
▁ca	-10.4289
pagado	-10.4313
canismo	-10.4401
▁ejecuci	-10.479
ela	-10.4867
pa	-10.5087
evi	-10.5188
éndose	-10.5226
activadas	-10.5377
esplaza	-10.5522
▁encendid	-10.6234
p	-11.7705
H	-12.9317
q	-12.9318
N	-12.9319
T	-12.932
x	-12.9321
F	-12.9322
O	-12.9323
D	-12.9324
I	-12.9325
C	-12.9326
E	-12.9327
L	-12.9328
P	-12.9329
h	-12.933
S	-12.9331
R	-12.9332
M	-12.9333
A	-12.9334
